TRT-8601-EntropyCalibration2
onnx::Cast_0: 4000890a
/pre_process/pre_process.0/Cast_output_0: 4000890a
(Unnamed Layer* 1) [Constant]_output: 0
/pre_process/pre_process.1/Sub_output_0: 4000890a
(Unnamed Layer* 3) [Constant]_output: 38018ba0
/pre_process/pre_process.1/Mul_output_0: 3c010a14
/model/backbone/stem/conv/rbr_reparam/Conv_output_0: 3e1ba5d5
/model/backbone/stem/conv/nonlinearity/Relu_output_0: 3dee93bd
/model/backbone/stage1/downsample/rbr_reparam/Conv_output_0: 3e774ee4
/model/backbone/stage1/downsample/nonlinearity/Relu_output_0: 3e3e519a
/model/backbone/stage1/blocks/conv1/conv/Conv_output_0: 3e958f39
/model/backbone/stage1/blocks/conv2/conv/Conv_output_0: 3e7287d6
/model/backbone/stage1/blocks/conv1/act/Relu_output_0: 3dd3c4f2
/model/backbone/stage1/blocks/conv2/act/Relu_output_0: 3e021d8c
/model/backbone/stage1/blocks/bottlenecks/bottlenecks.0/cv1/rbr_reparam/Conv_output_0: 3dd603c3
(Unnamed Layer* 14) [Constant]_output: 3a120ecf
(Unnamed Layer* 15) [Shuffle]_output: 3a120ecf
/model/backbone/stage1/blocks/bottlenecks/bottlenecks.0/Mul_output_0: 3befb2df
/model/backbone/stage1/blocks/bottlenecks/bottlenecks.0/cv1/nonlinearity/Relu_output_0: 3dc47bdd
/model/backbone/stage1/blocks/bottlenecks/bottlenecks.0/cv2/rbr_reparam/Conv_output_0: 3e003116
/model/backbone/stage1/blocks/bottlenecks/bottlenecks.0/cv2/nonlinearity/Relu_output_0: 3e00cc91
/model/backbone/stage1/blocks/bottlenecks/bottlenecks.0/Add_output_0: 3e0be9c4
/model/backbone/stage1/blocks/bottlenecks/bottlenecks.1/cv1/rbr_reparam/Conv_output_0: 3daace38
(Unnamed Layer* 22) [Constant]_output: 3bbf3205
(Unnamed Layer* 23) [Shuffle]_output: 3bbf3205
/model/backbone/stage1/blocks/bottlenecks/bottlenecks.1/Mul_output_0: 3dcf4e8f
/model/backbone/stage1/blocks/bottlenecks/bottlenecks.1/cv1/nonlinearity/Relu_output_0: 3d8ca5c6
/model/backbone/stage1/blocks/bottlenecks/bottlenecks.1/cv2/rbr_reparam/Conv_output_0: 3de0fd44
/model/backbone/stage1/blocks/bottlenecks/bottlenecks.1/cv2/nonlinearity/Relu_output_0: 3de0fd44
/model/backbone/stage1/blocks/bottlenecks/bottlenecks.1/Add_output_0: 3de75529
/model/backbone/stage1/blocks/Concat_output_0: 3de75529
/model/backbone/stage1/blocks/conv3/conv/Conv_output_0: 3e1b8eed
/model/backbone/stage1/blocks/conv3/act/Relu_output_0: 3dd634f6
/model/backbone/stage2/downsample/rbr_reparam/Conv_output_0: 3df92183
/model/neck/neck2/reduce_skip2/conv/Conv_output_0: 3d93c9dd
/model/backbone/stage2/downsample/nonlinearity/Relu_output_0: 3dd88f72
/model/neck/neck2/reduce_skip2/act/Relu_output_0: 3d44bd7e
/model/backbone/stage2/blocks/conv1/conv/Conv_output_0: 3d8118ac
/model/backbone/stage2/blocks/conv2/conv/Conv_output_0: 3d9bcf68
/model/neck/neck2/downsample/conv/Conv_output_0: 3d3af0bc
/model/backbone/stage2/blocks/conv1/act/Relu_output_0: 3d63c770
/model/backbone/stage2/blocks/conv2/act/Relu_output_0: 3d940cb9
/model/neck/neck2/downsample/act/Relu_output_0: 3cacb875
/model/backbone/stage2/blocks/bottlenecks/bottlenecks.0/cv1/rbr_reparam/Conv_output_0: 3de72387
(Unnamed Layer* 43) [Constant]_output: 3ba9f243
(Unnamed Layer* 44) [Shuffle]_output: 3ba9f243
/model/backbone/stage2/blocks/bottlenecks/bottlenecks.0/Mul_output_0: 3d15fe6b
/model/backbone/stage2/blocks/bottlenecks/bottlenecks.0/cv1/nonlinearity/Relu_output_0: 3d8b1d85
/model/backbone/stage2/blocks/bottlenecks/bottlenecks.0/cv2/rbr_reparam/Conv_output_0: 3d57fad5
/model/backbone/stage2/blocks/bottlenecks/bottlenecks.0/cv2/nonlinearity/Relu_output_0: 3d466b3d
/model/backbone/stage2/blocks/bottlenecks/bottlenecks.0/Add_output_0: 3d6c0bf0
/model/backbone/stage2/blocks/bottlenecks/bottlenecks.1/cv1/rbr_reparam/Conv_output_0: 3dd575c8
(Unnamed Layer* 51) [Constant]_output: 3ba31919
(Unnamed Layer* 52) [Shuffle]_output: 3ba31919
/model/backbone/stage2/blocks/bottlenecks/bottlenecks.1/Mul_output_0: 3d152ca5
/model/backbone/stage2/blocks/bottlenecks/bottlenecks.1/cv1/nonlinearity/Relu_output_0: 3d8c4d9c
/model/backbone/stage2/blocks/bottlenecks/bottlenecks.1/cv2/rbr_reparam/Conv_output_0: 3d83b152
/model/backbone/stage2/blocks/bottlenecks/bottlenecks.1/cv2/nonlinearity/Relu_output_0: 3d5a357b
/model/backbone/stage2/blocks/bottlenecks/bottlenecks.1/Add_output_0: 3d7ff80f
/model/backbone/stage2/blocks/bottlenecks/bottlenecks.2/cv1/rbr_reparam/Conv_output_0: 3dcf597e
(Unnamed Layer* 59) [Constant]_output: 3bd4348d
(Unnamed Layer* 60) [Shuffle]_output: 3bd4348d
/model/backbone/stage2/blocks/bottlenecks/bottlenecks.2/Mul_output_0: 3d527875
/model/backbone/stage2/blocks/bottlenecks/bottlenecks.2/cv1/nonlinearity/Relu_output_0: 3d81503a
/model/backbone/stage2/blocks/bottlenecks/bottlenecks.2/cv2/rbr_reparam/Conv_output_0: 3d96ff09
/model/backbone/stage2/blocks/bottlenecks/bottlenecks.2/cv2/nonlinearity/Relu_output_0: 3d896f48
/model/backbone/stage2/blocks/bottlenecks/bottlenecks.2/Add_output_0: 3daf5508
/model/backbone/stage2/blocks/Concat_output_0: 3da94397
/model/backbone/stage2/blocks/conv3/conv/Conv_output_0: 3de9119e
/model/backbone/stage2/blocks/conv3/act/Relu_output_0: 3db676b7
/model/backbone/stage3/downsample/rbr_reparam/Conv_output_0: 3dc1616e
/model/neck/neck1/reduce_skip2/conv/Conv_output_0: 3d8256ce
/model/neck/neck2/reduce_skip1/conv/Conv_output_0: 3d5e3606
/model/backbone/stage3/downsample/nonlinearity/Relu_output_0: 3d975b53
/model/neck/neck1/reduce_skip2/act/Relu_output_0: 3d4b6096
/model/neck/neck2/reduce_skip1/act/Relu_output_0: 3c5d468a
/model/backbone/stage3/blocks/conv1/conv/Conv_output_0: 3d52503e
/model/backbone/stage3/blocks/conv2/conv/Conv_output_0: 3d878a02
/model/neck/neck1/downsample/conv/Conv_output_0: 3d8001af
/model/backbone/stage3/blocks/conv1/act/Relu_output_0: 3d5a5fb6
/model/backbone/stage3/blocks/conv2/act/Relu_output_0: 3d807ca2
/model/neck/neck1/downsample/act/Relu_output_0: 3c9a10df
/model/backbone/stage3/blocks/bottlenecks/bottlenecks.0/cv1/rbr_reparam/Conv_output_0: 3d9f5eda
(Unnamed Layer* 82) [Constant]_output: 3bb605cb
(Unnamed Layer* 83) [Shuffle]_output: 3bb605cb
/model/backbone/stage3/blocks/bottlenecks/bottlenecks.0/Mul_output_0: 3d1a04d2
/model/backbone/stage3/blocks/bottlenecks/bottlenecks.0/cv1/nonlinearity/Relu_output_0: 3d5198f0
/model/backbone/stage3/blocks/bottlenecks/bottlenecks.0/cv2/rbr_reparam/Conv_output_0: 3d0f0c34
/model/backbone/stage3/blocks/bottlenecks/bottlenecks.0/cv2/nonlinearity/Relu_output_0: 3d0f0733
/model/backbone/stage3/blocks/bottlenecks/bottlenecks.0/Add_output_0: 3d5073d4
/model/backbone/stage3/blocks/bottlenecks/bottlenecks.1/cv1/rbr_reparam/Conv_output_0: 3d96c0af
(Unnamed Layer* 90) [Constant]_output: 3bb8793e
(Unnamed Layer* 91) [Shuffle]_output: 3bb8793e
/model/backbone/stage3/blocks/bottlenecks/bottlenecks.1/Mul_output_0: 3d15003e
/model/backbone/stage3/blocks/bottlenecks/bottlenecks.1/cv1/nonlinearity/Relu_output_0: 3d3d5a18
/model/backbone/stage3/blocks/bottlenecks/bottlenecks.1/cv2/rbr_reparam/Conv_output_0: 3d1232b7
/model/backbone/stage3/blocks/bottlenecks/bottlenecks.1/cv2/nonlinearity/Relu_output_0: 3d09d615
/model/backbone/stage3/blocks/bottlenecks/bottlenecks.1/Add_output_0: 3d3e87a0
/model/backbone/stage3/blocks/bottlenecks/bottlenecks.2/cv1/rbr_reparam/Conv_output_0: 3d8e6486
(Unnamed Layer* 98) [Constant]_output: 3bcb93e7
(Unnamed Layer* 99) [Shuffle]_output: 3bcb93e7
/model/backbone/stage3/blocks/bottlenecks/bottlenecks.2/Mul_output_0: 3d164b33
/model/backbone/stage3/blocks/bottlenecks/bottlenecks.2/cv1/nonlinearity/Relu_output_0: 3d553edd
/model/backbone/stage3/blocks/bottlenecks/bottlenecks.2/cv2/rbr_reparam/Conv_output_0: 3d2c8da8
/model/backbone/stage3/blocks/bottlenecks/bottlenecks.2/cv2/nonlinearity/Relu_output_0: 3d10b19b
/model/backbone/stage3/blocks/bottlenecks/bottlenecks.2/Add_output_0: 3d504812
/model/backbone/stage3/blocks/bottlenecks/bottlenecks.3/cv1/rbr_reparam/Conv_output_0: 3da84de1
(Unnamed Layer* 106) [Constant]_output: 3bded8d4
(Unnamed Layer* 107) [Shuffle]_output: 3bded8d4
/model/backbone/stage3/blocks/bottlenecks/bottlenecks.3/Mul_output_0: 3d33d90d
/model/backbone/stage3/blocks/bottlenecks/bottlenecks.3/cv1/nonlinearity/Relu_output_0: 3d34af8f
/model/backbone/stage3/blocks/bottlenecks/bottlenecks.3/cv2/rbr_reparam/Conv_output_0: 3d527162
/model/backbone/stage3/blocks/bottlenecks/bottlenecks.3/cv2/nonlinearity/Relu_output_0: 3d3b44e3
/model/backbone/stage3/blocks/bottlenecks/bottlenecks.3/Add_output_0: 3d5acbc2
/model/backbone/stage3/blocks/bottlenecks/bottlenecks.4/cv1/rbr_reparam/Conv_output_0: 3da6f582
(Unnamed Layer* 114) [Constant]_output: 3bed73db
(Unnamed Layer* 115) [Shuffle]_output: 3bed73db
/model/backbone/stage3/blocks/bottlenecks/bottlenecks.4/Mul_output_0: 3d494f2e
/model/backbone/stage3/blocks/bottlenecks/bottlenecks.4/cv1/nonlinearity/Relu_output_0: 3d48b6c4
/model/backbone/stage3/blocks/bottlenecks/bottlenecks.4/cv2/rbr_reparam/Conv_output_0: 3d852da2
/model/backbone/stage3/blocks/bottlenecks/bottlenecks.4/cv2/nonlinearity/Relu_output_0: 3d6a232d
/model/backbone/stage3/blocks/bottlenecks/bottlenecks.4/Add_output_0: 3d8efe07
/model/backbone/stage3/blocks/Concat_output_0: 3d93d97e
/model/backbone/stage3/blocks/conv3/conv/Conv_output_0: 3dd20c83
/model/backbone/stage3/blocks/conv3/act/Relu_output_0: 3d87bf94
/model/backbone/stage4/downsample/rbr_reparam/Conv_output_0: 3d92a02c
/model/neck/neck1/reduce_skip1/conv/Conv_output_0: 3d55745c
/model/backbone/stage4/downsample/nonlinearity/Relu_output_0: 3d3801ca
/model/neck/neck1/reduce_skip1/act/Relu_output_0: 3cb09779
/model/backbone/stage4/blocks/conv1/conv/Conv_output_0: 3d74c2ae
/model/backbone/stage4/blocks/conv2/conv/Conv_output_0: 3d598acb
/model/backbone/stage4/blocks/conv1/act/Relu_output_0: 3d389648
/model/backbone/stage4/blocks/conv2/act/Relu_output_0: 3d4131c3
/model/backbone/stage4/blocks/bottlenecks/bottlenecks.0/cv1/rbr_reparam/Conv_output_0: 3d5b44d8
(Unnamed Layer* 133) [Constant]_output: 3a8ea322
(Unnamed Layer* 134) [Shuffle]_output: 3a8ea322
/model/backbone/stage4/blocks/bottlenecks/bottlenecks.0/Mul_output_0: 3bcc09d4
/model/backbone/stage4/blocks/bottlenecks/bottlenecks.0/cv1/nonlinearity/Relu_output_0: 3d459151
/model/backbone/stage4/blocks/bottlenecks/bottlenecks.0/cv2/rbr_reparam/Conv_output_0: 3d66723c
/model/backbone/stage4/blocks/bottlenecks/bottlenecks.0/cv2/nonlinearity/Relu_output_0: 3d50596e
/model/backbone/stage4/blocks/bottlenecks/bottlenecks.0/Add_output_0: 3d1f5b33
/model/backbone/stage4/blocks/bottlenecks/bottlenecks.1/cv1/rbr_reparam/Conv_output_0: 3d5e60e7
(Unnamed Layer* 141) [Constant]_output: 3bc5fc6f
(Unnamed Layer* 142) [Shuffle]_output: 3bc5fc6f
/model/backbone/stage4/blocks/bottlenecks/bottlenecks.1/Mul_output_0: 3cf48061
/model/backbone/stage4/blocks/bottlenecks/bottlenecks.1/cv1/nonlinearity/Relu_output_0: 3d0d9ac4
/model/backbone/stage4/blocks/bottlenecks/bottlenecks.1/cv2/rbr_reparam/Conv_output_0: 3d67ffe1
/model/backbone/stage4/blocks/bottlenecks/bottlenecks.1/cv2/nonlinearity/Relu_output_0: 3d3b16dd
/model/backbone/stage4/blocks/bottlenecks/bottlenecks.1/Add_output_0: 3d3ace3e
/model/backbone/stage4/blocks/Concat_output_0: 3d3ace3e
/model/backbone/stage4/blocks/conv3/conv/Conv_output_0: 3d742063
/model/backbone/stage4/blocks/conv3/act/Relu_output_0: 3d190119
/model/backbone/context_module/cv1/conv/Conv_output_0: 3d374d5f
/model/backbone/context_module/cv1/act/Relu_output_0: 3d374d5f
/model/backbone/context_module/m.0/MaxPool_output_0: 3d374d5f
/model/backbone/context_module/m.1/MaxPool_output_0: 3d374d5f
/model/backbone/context_module/m.2/MaxPool_output_0: 3d374d5f
/model/backbone/context_module/Concat_output_0: 3d4969a4
/model/backbone/context_module/cv2/conv/Conv_output_0: 3da1feb4
/model/backbone/context_module/cv2/act/Relu_output_0: 3d1b858d
/model/neck/neck1/conv/conv/Conv_output_0: 3da88257
/model/neck/neck1/conv/act/Relu_output_0: 3da99885
/model/neck/neck1/upsample/ConvTranspose_output_0: 3bd80f10
/model/neck/neck1/Concat_output_0: 3c7e709d
/model/neck/neck1/reduce_after_concat/conv/Conv_output_0: 3d96ac52
/model/neck/neck1/reduce_after_concat/act/Relu_output_0: 3d6c6bf6
/model/neck/neck1/blocks/conv1/conv/Conv_output_0: 3d80cfa6
/model/neck/neck1/blocks/conv2/conv/Conv_output_0: 3d82b8f6
/model/neck/neck1/blocks/conv1/act/Relu_output_0: 3d0c5645
/model/neck/neck1/blocks/conv2/act/Relu_output_0: 3d566133
/model/neck/neck1/blocks/bottlenecks/bottlenecks.0/cv1/rbr_reparam/Conv_output_0: 3d3ee767
(Unnamed Layer* 170) [Constant]_output: 383ecee6
(Unnamed Layer* 171) [Shuffle]_output: 383ecee6
/model/neck/neck1/blocks/bottlenecks/bottlenecks.0/Mul_output_0: 394f8387
/model/neck/neck1/blocks/bottlenecks/bottlenecks.0/cv1/nonlinearity/Relu_output_0: 3d299384
/model/neck/neck1/blocks/bottlenecks/bottlenecks.0/cv2/rbr_reparam/Conv_output_0: 3d37d29b
/model/neck/neck1/blocks/bottlenecks/bottlenecks.0/cv2/nonlinearity/Relu_output_0: 3d300e92
/model/neck/neck1/blocks/bottlenecks/bottlenecks.0/Add_output_0: 3c63a0c5
/model/neck/neck1/blocks/bottlenecks/bottlenecks.1/cv1/rbr_reparam/Conv_output_0: 3d4ab86a
(Unnamed Layer* 178) [Constant]_output: 3b616cda
(Unnamed Layer* 179) [Shuffle]_output: 3b616cda
/model/neck/neck1/blocks/bottlenecks/bottlenecks.1/Mul_output_0: 3bc6d3c7
/model/neck/neck1/blocks/bottlenecks/bottlenecks.1/cv1/nonlinearity/Relu_output_0: 3d0e02c4
/model/neck/neck1/blocks/bottlenecks/bottlenecks.1/cv2/rbr_reparam/Conv_output_0: 3d57dfce
/model/neck/neck1/blocks/bottlenecks/bottlenecks.1/cv2/nonlinearity/Relu_output_0: 3d26ef7e
/model/neck/neck1/blocks/bottlenecks/bottlenecks.1/Add_output_0: 3d301656
/model/neck/neck1/blocks/Concat_output_0: 3d578541
/model/neck/neck1/blocks/conv3/conv/Conv_output_0: 3d8f6e51
/model/neck/neck1/blocks/conv3/act/Relu_output_0: 3d260ce0
/model/neck/neck2/conv/conv/Conv_output_0: 3d6f3a84
/model/neck/neck2/conv/act/Relu_output_0: 3d6f3a84
/model/neck/neck2/upsample/ConvTranspose_output_0: 3be8d631
/model/neck/neck2/Concat_output_0: 3c9522df
/model/neck/neck2/reduce_after_concat/conv/Conv_output_0: 3d9a4a28
/model/neck/neck2/reduce_after_concat/act/Relu_output_0: 3d3eda79
/model/neck/neck2/blocks/conv1/conv/Conv_output_0: 3d15483f
/model/neck/neck2/blocks/conv2/conv/Conv_output_0: 3de05fc8
/model/neck/neck2/blocks/conv1/act/Relu_output_0: 3ccb9567
/model/neck/neck2/blocks/conv2/act/Relu_output_0: 3d15849b
/model/neck/neck2/blocks/bottlenecks/bottlenecks.0/cv1/rbr_reparam/Conv_output_0: 3d376a89
(Unnamed Layer* 199) [Constant]_output: 38dfa0c2
(Unnamed Layer* 200) [Shuffle]_output: 38dfa0c2
/model/neck/neck2/blocks/bottlenecks/bottlenecks.0/Mul_output_0: 39b06848
/model/neck/neck2/blocks/bottlenecks/bottlenecks.0/cv1/nonlinearity/Relu_output_0: 3cf8053b
/model/neck/neck2/blocks/bottlenecks/bottlenecks.0/cv2/rbr_reparam/Conv_output_0: 3d33c7a0
/model/neck/neck2/blocks/bottlenecks/bottlenecks.0/cv2/nonlinearity/Relu_output_0: 3d16e360
/model/neck/neck2/blocks/bottlenecks/bottlenecks.0/Add_output_0: 3cb4bc87
/model/neck/neck2/blocks/bottlenecks/bottlenecks.1/cv1/rbr_reparam/Conv_output_0: 3d4af9d8
(Unnamed Layer* 207) [Constant]_output: 39616267
(Unnamed Layer* 208) [Shuffle]_output: 39616267
/model/neck/neck2/blocks/bottlenecks/bottlenecks.1/Mul_output_0: 3a1dd70f
/model/neck/neck2/blocks/bottlenecks/bottlenecks.1/cv1/nonlinearity/Relu_output_0: 3d0f41a5
/model/neck/neck2/blocks/bottlenecks/bottlenecks.1/cv2/rbr_reparam/Conv_output_0: 3d6a76e2
/model/neck/neck2/blocks/bottlenecks/bottlenecks.1/cv2/nonlinearity/Relu_output_0: 3d621b5e
/model/neck/neck2/blocks/bottlenecks/bottlenecks.1/Add_output_0: 3d0758ec
/model/neck/neck2/blocks/Concat_output_0: 3d0758ec
/model/neck/neck2/blocks/conv3/conv/Conv_output_0: 3d98f5cf
/model/neck/neck2/blocks/conv3/act/Relu_output_0: 3d7684f3
/model/neck/neck3/conv/conv/Conv_output_0: 3dbbdfa5
/model/heads/head1/stem/seq/conv/Conv_output_0: 3da3cbc1
/model/neck/neck3/conv/act/Relu_output_0: 3db3e1d5
/model/heads/head1/stem/seq/act/Relu_output_0: 3d8f0300
/model/neck/neck3/Concat_output_0: 3d9b50d6
/model/heads/head1/cls_convs/cls_convs.0/seq/conv/Conv_output_0: 3e52412a
/model/heads/head1/reg_convs/reg_convs.0/seq/conv/Conv_output_0: 3e931255
/model/neck/neck3/blocks/conv1/conv/Conv_output_0: 3d64ad7b
/model/neck/neck3/blocks/conv2/conv/Conv_output_0: 3d399c7d
/model/heads/head1/cls_convs/cls_convs.0/seq/act/Relu_output_0: 3df14a0b
/model/heads/head1/reg_convs/reg_convs.0/seq/act/Relu_output_0: 3e9d0d5f
/model/neck/neck3/blocks/conv1/act/Relu_output_0: 3d552fab
/model/neck/neck3/blocks/conv2/act/Relu_output_0: 3d399c7d
/model/heads/head1/cls_pred/Conv_output_0: 3da4a341
/model/heads/head1/reg_pred/Conv_output_0: 3dc7992d
/model/neck/neck3/blocks/bottlenecks/bottlenecks.0/cv1/conv/Conv_output_0: 3d812856
(Unnamed Layer* 233) [Constant]_output: 37f8dfb3
(Unnamed Layer* 234) [Shuffle]_output: 37f8dfb3
/model/neck/neck3/blocks/bottlenecks/bottlenecks.0/Mul_output_0: 394d951e
/model/heads/Reshape_output_0: 3dc7992d
/model/heads/Reshape_1_output_0: 3da4a341
/model/neck/neck3/blocks/bottlenecks/bottlenecks.0/cv1/act/Relu_output_0: 3d20c919
/model/heads/Transpose_output_0: 3dc7992d
/model/neck/neck3/blocks/bottlenecks/bottlenecks.0/cv2/conv/Conv_output_0: 3d9c6220
(Unnamed Layer* 241) [Softmax]_output: 3bb931d2
/model/neck/neck3/blocks/bottlenecks/bottlenecks.0/cv2/act/Relu_output_0: 3d709e71
/model/heads/Conv_output_0: 3de1b7f0
/model/neck/neck3/blocks/bottlenecks/bottlenecks.0/Add_output_0: 3cddba19
/model/heads/Squeeze_output_0: 3de1b7f0
/model/neck/neck3/blocks/bottlenecks/bottlenecks.1/cv1/conv/Conv_output_0: 3dc1df48
(Unnamed Layer* 248) [Constant]_output: 394b6bd4
(Unnamed Layer* 249) [Shuffle]_output: 394b6bd4
/model/neck/neck3/blocks/bottlenecks/bottlenecks.1/Mul_output_0: 3a2ec4a9
/model/neck/neck3/blocks/bottlenecks/bottlenecks.1/cv1/act/Relu_output_0: 3d948f51
/model/neck/neck3/blocks/bottlenecks/bottlenecks.1/cv2/conv/Conv_output_0: 3d80ac81
/model/neck/neck3/blocks/bottlenecks/bottlenecks.1/cv2/act/Relu_output_0: 3d3411ab
/model/neck/neck3/blocks/bottlenecks/bottlenecks.1/Add_output_0: 3cdf49db
/model/neck/neck3/blocks/Concat_output_0: 3d0b1868
/model/neck/neck3/blocks/conv3/conv/Conv_output_0: 3d5bfadb
/model/neck/neck3/blocks/conv3/act/Relu_output_0: 3d24a811
/model/neck/neck4/conv/conv/Conv_output_0: 3db7434f
/model/heads/head2/stem/seq/conv/Conv_output_0: 3d899bb8
/model/neck/neck4/conv/act/Relu_output_0: 3d95d187
/model/heads/head2/stem/seq/act/Relu_output_0: 3d597de8
/model/neck/neck4/Concat_output_0: 3da88257
/model/heads/head2/cls_convs/cls_convs.0/seq/conv/Conv_output_0: 3e230542
/model/heads/head2/reg_convs/reg_convs.0/seq/conv/Conv_output_0: 3e8891d8
/model/neck/neck4/blocks/conv1/conv/Conv_output_0: 3d5685c7
/model/neck/neck4/blocks/conv2/conv/Conv_output_0: 3d22885f
/model/heads/head2/cls_convs/cls_convs.0/seq/act/Relu_output_0: 3e1eb727
/model/heads/head2/reg_convs/reg_convs.0/seq/act/Relu_output_0: 3e991dc1
/model/neck/neck4/blocks/conv1/act/Relu_output_0: 3d446145
/model/neck/neck4/blocks/conv2/act/Relu_output_0: 3d22885f
/model/heads/head2/cls_pred/Conv_output_0: 3da3927b
/model/heads/head2/reg_pred/Conv_output_0: 3dc80b8e
/model/neck/neck4/blocks/bottlenecks/bottlenecks.0/cv1/conv/Conv_output_0: 3d4d6d04
(Unnamed Layer* 274) [Constant]_output: 35ab6039
(Unnamed Layer* 275) [Shuffle]_output: 35ab6039
/model/neck/neck4/blocks/bottlenecks/bottlenecks.0/Mul_output_0: 370267b5
/model/heads/Reshape_2_output_0: 3dc80b8e
/model/heads/Reshape_3_output_0: 3da3927b
/model/neck/neck4/blocks/bottlenecks/bottlenecks.0/cv1/act/Relu_output_0: 3d22d925
/model/heads/Transpose_1_output_0: 3dc80b8e
/model/neck/neck4/blocks/bottlenecks/bottlenecks.0/cv2/conv/Conv_output_0: 3d5503ad
(Unnamed Layer* 282) [Softmax]_output: 3bc8541f
/model/neck/neck4/blocks/bottlenecks/bottlenecks.0/cv2/act/Relu_output_0: 3d3a3948
/model/heads/Conv_1_output_0: 3df60210
/model/neck/neck4/blocks/bottlenecks/bottlenecks.0/Add_output_0: 3d3a3948
/model/heads/Squeeze_1_output_0: 3df60210
/model/neck/neck4/blocks/bottlenecks/bottlenecks.1/cv1/conv/Conv_output_0: 3d861555
(Unnamed Layer* 289) [Constant]_output: 37f096f6
(Unnamed Layer* 290) [Shuffle]_output: 37f096f6
/model/neck/neck4/blocks/bottlenecks/bottlenecks.1/Mul_output_0: 392d9aa3
/model/neck/neck4/blocks/bottlenecks/bottlenecks.1/cv1/act/Relu_output_0: 3d4f63f0
/model/neck/neck4/blocks/bottlenecks/bottlenecks.1/cv2/conv/Conv_output_0: 3d702652
/model/neck/neck4/blocks/bottlenecks/bottlenecks.1/cv2/act/Relu_output_0: 3d2b9559
/model/neck/neck4/blocks/bottlenecks/bottlenecks.1/Add_output_0: 3d156c17
/model/neck/neck4/blocks/Concat_output_0: 3d2ac1a0
/model/neck/neck4/blocks/conv3/conv/Conv_output_0: 3d6292f0
/model/neck/neck4/blocks/conv3/act/Relu_output_0: 3d149c69
/model/heads/head3/stem/seq/conv/Conv_output_0: 3d6fbfc5
/model/heads/head3/stem/seq/act/Relu_output_0: 3d1bb8eb
/model/heads/head3/cls_convs/cls_convs.0/seq/conv/Conv_output_0: 3debcd06
/model/heads/head3/reg_convs/reg_convs.0/seq/conv/Conv_output_0: 3e4f036b
/model/heads/head3/cls_convs/cls_convs.0/seq/act/Relu_output_0: 3deb2e7b
/model/heads/head3/reg_convs/reg_convs.0/seq/act/Relu_output_0: 3e5db18a
/model/heads/head3/cls_pred/Conv_output_0: 3d8a8655
/model/heads/head3/reg_pred/Conv_output_0: 3db7bea8
/model/heads/Reshape_4_output_0: 3db7bea8
/model/heads/Reshape_5_output_0: 3d8a8655
/model/heads/Transpose_2_output_0: 3db7bea8
/model/heads/Concat_output_0: 3da4d631
(Unnamed Layer* 311) [Softmax]_output: 3be8120b
/model/heads/Transpose_3_output_0: 3da4d631
/model/heads/Conv_2_output_0: 3de78f25
/model/heads/Sigmoid_output_0: 3a887c46
/model/heads/Squeeze_2_output_0: 3de78f25
/post_process/ReduceMax_output_0: 3ae51e3f
/post_process/Reshape_3_output_0: 3a887c46
/model/heads/Concat_1_output_0: 3deebe4f
/post_process/TopK_output_0: 3bfc6647
/model/heads/Split_output_0: 3df71bd8
/model/heads/Split_output_1: 3df0949b
/model/heads/Neg_output_0: 3df71bd8
(Unnamed Layer* 328) [Constant]_output: 3f204a85
(Unnamed Layer* 329) [Shuffle]_output: 3f204a85
/model/heads/Add_1_output_0: 3f21a774
(Unnamed Layer* 331) [Shuffle]_output: 3f204a85
/model/heads/Add_output_0: 3f1f902e
/model/heads/Concat_6_output_0: 3f21a774
(Unnamed Layer* 334) [Constant]_output: 3e810a14
(Unnamed Layer* 335) [Shuffle]_output: 3e810a14
/model/heads/Mul_output_0: 40a1b9b2
/post_process/Reshape_1_output_0: 40a1b9b2
/post_process/Gather_1_output_0: 3a9f26a0
/post_process/Gather_output_0: 40a1cb59
pre_nms_scores: 3a9f26a0
pre_nms_bboxes_xyxy: 40a1cb59
det_boxes: 40a66d49
det_scores: 3c0ef3d6
